05e603000c0618f4e600000000000000
001c0febfee9efec0200000000000000
e3040ff90b06fa14fd00000000000000
0bfcf5e3fee1f3ec1b00000000000000
111ceceaf3e8030b0800000000000000
1ce7fee7ed02f2091900000000000000
0d02fcfa1c10eceb1d00000000000000
e21efa1207000618f500000000000000
f9e817e70210e8f21400000000000000
f900e9f30c09e6060700000000000000
e3fd02f6010cf6081e00000000000000
fa1cf201eee2190cec00000000000000
08fd07ec0419e4041000000000000000
e6fd02130f0c09fc1b00000000000000
e3e719e21103e60de800000000000000
0714edeaf9e60b01f100000000000000
ff071cf81df7e801f100000000000000
00faf5f01f19ffff0c00000000000000
1914ffe1ed1513100d00000000000000
f6fe0419ecf5e5f6e300000000000000
f4fde404f413f3ebf200000000000000
0cfefc061814e800e800000000000000
f8fb00f1fc00170f1200000000000000
141c141aec041a0af700000000000000
edf80aec0ce5eaf90900000000000000
ed16ea07fd17e3f20900000000000000
1a1707f0f0180bffee00000000000000
120af40813e6e7f60200000000000000
0c0703fa04fe1fe1ef00000000000000
ed03071e191e11001300000000000000
121ceb0df1030fe6f100000000000000
0dedf400f81f03101e00000000000000
11050f1a01fdea000800000000000000
ff17e5fefb001815fe00000000000000
04f9f81100fff8ecec00000000000000
e4e60bf004080a160b00000000000000
e50b0e07f1f31502fe00000000000000
ece9eaf6f002000d0700000000000000
1207f10009191f020500000000000000
0cf20b00191afbfdff00000000000000
1008e2e4e3f10702e500000000000000
e6ff060fef1c0e181700000000000000
f90a03f501ebee09f600000000000000
f801ea0ce2fd061af000000000000000
1afc1e0af4e907f00700000000000000
1efbe318f1e4f5001600000000000000
1f0d11f2021c011d1700000000000000
f80102e9e4f51f040c00000000000000
000b1ae4f81316021800000000000000
fa0d0c0c17e90b19f200000000000000
e809ec16eafaf3011f00000000000000
12fa1af9f80ae51d0800000000000000
eb09e80b09f9e7f20000000000000000
e703f613f6f2e3f50e00000000000000
e2f3f70a05f8ecf80000000000000000
edeee303ed11e4e4ec00000000000000
17fd19edee17e4f3fe00000000000000
051fe9e90c0b11031700000000000000
e2fc1ce908e217f21000000000000000
f0f4e70f11e7f6000a00000000000000
0f19ee1af80a1a0c0b00000000000000
05070fe7f3190705e300000000000000
10f3f31701e31eedfe00000000000000
0800f61817f7fa15e400000000000000
02150ff6f8ebf2ff0400000000000000
1d060ef8e6eb0110ff00000000000000
13e413f90afe14ebf900000000000000
ffece4f5e912f8101000000000000000
ee0a1019fe10eb1d0b00000000000000
0314e114fd0ce5f7f500000000000000
0de808e901e81ef3f100000000000000
fb1a12e2f714161be700000000000000
e5e4f5e1f51213060200000000000000
1d05ebf3f5e9eb091100000000000000
0106e9150b07f1001100000000000000
170cf5f0f3f8e7f4e400000000000000
1bfc07f602e91feb1200000000000000
0b110b1d19e8e70afa00000000000000
00edef0407ece903e800000000000000
030a13f3011ee2e81700000000000000
16f40cfd1c1d1ef10800000000000000
02161712e104fcf51500000000000000
1ff201fdeb001dedea00000000000000
fb051215f014e1e10000000000000000
0a1e1509f80d160c0d00000000000000
1ae7e107050b020a1f00000000000000
f4150eed1ff20bf6ed00000000000000
1cf81715fbe208ede900000000000000
1917e811100c111cee00000000000000
0a1fece305041b15f500000000000000
f11014f20c09ebf0e200000000000000
f712e1e60604071fe500000000000000
050d130af10ff60bea00000000000000
f7effc100d03e3fe1300000000000000
0a0efd0f1b130df91d00000000000000
ee0fe100e31ff6e4fb00000000000000
fc0be6f0edf40ce6ff00000000000000
14f201121a021bf2e800000000000000
efe11ef2fe0de70afc00000000000000
f6e6e514e1ef1ff41400000000000000
f4f30307fcfd0c03f400000000000000
f415f81e10f9fefbfa00000000000000
06131e1f1607170cf300000000000000
fbea000a0b1d12e9fa00000000000000
f41bec04faf409011700000000000000
f8010dfce1fd191d0e00000000000000
fee4e4f4f71b0c1d0f00000000000000
121ff81effe40de91700000000000000
11f41102fc0bec001e00000000000000
1b0bf3e50cf70f11eb00000000000000
00e205f500fdf908e700000000000000
e413030a06ea10ebe900000000000000
fb19e9e417e1f816fa00000000000000
fc051ef2e605f7e50500000000000000
090202e1031212e20400000000000000
f918fd0f04f2001c1200000000000000
f3fe1f1bedf6e71ae800000000000000
e8110608f00ce5ec1e00000000000000
1be90ae708f405eef400000000000000
0fed151b0610e7fc0000000000000000
fae8f5e6eff903e1ec00000000000000
19ef13e108180de8f900000000000000
ec1cef1df8161ff6ea00000000000000
f40513ec1aee07e41200000000000000
fdf21c1700fc1401e800000000000000
f013050e01ee13e9ff00000000000000
1d18eb16ee19ed15ff00000000000000
e5e6e31b07ef0bf70100000000000000
