0affe3130107e70aed00000000000000
00e91bfe03021b07e700000000000000
f3fc05180814f619f000000000000000
151dec0cfaf2e3e1e500000000000000
040bf80002f2e810ff00000000000000
e21805f205f8f818ee00000000000000
1ae6ef1817f313fbe200000000000000
f9001bf9e90ffa020100000000000000
1af9e8f21c02f71f0000000000000000
e80ee9ef170de10e0900000000000000
1300001bf2f8ef1a1800000000000000
e1e511160aeafd020700000000000000
0801f5fdf60a1115e900000000000000
e600fd04f110faff1900000000000000
10f8ff0d1c1afbe81c00000000000000
0a15fe05020e1e030000000000000000
04e715e3051d0ff1fa00000000000000
1318f5f6f7171df70900000000000000
f80d180c1cf9190cf900000000000000
110d130bf5fbfd00f200000000000000
13e7f31c0000f4e6fc00000000000000
1a1dfafb1b0d071b1a00000000000000
fc101efce3050bed1800000000000000
e3111ffa14ffff02e300000000000000
14e8f70efceb15171000000000000000
f609ef0bf3f41b16f700000000000000
14ed1c0316edfaebe100000000000000
1d0b07fa08e81e03ec00000000000000
001ae5eaf2fc021a0b00000000000000
ffebe3fbf3fb1711eb00000000000000
08170b1bf81207fef900000000000000
12e1fcefe8ed05fd1600000000000000
0affe3e603f6180eef00000000000000
1300001606fb0019f200000000000000
1bfc0bed05fcf718f600000000000000
e1091218ee1a0cf9ee00000000000000
f60ef60513011e140a00000000000000
f21a1ce3fafef800ff00000000000000
0819e81be20408f6e300000000000000
e2fa0f1ae20f090beb00000000000000
1d0e10091312171c0d00000000000000
e303fb06e21a1ff0f100000000000000
ece30e09e808040be900000000000000
191cf8f102fb0313fa00000000000000
f200f712f90013fee500000000000000
f41115130007e805f700000000000000
0a1117f4f615081df500000000000000
06f30c1808edfcfa0000000000000000
13fe0a17f9f1e70a0600000000000000
ef0fede4e5fbf405ef00000000000000
e2f000fe18fa07eae900000000000000
f7ebebf8e3f615110d00000000000000
fe01110606ffeaedfd00000000000000
e8ee02061e0405e81800000000000000
04e807ef0815ff0b1500000000000000
fbed12f410e6e6fb1f00000000000000
fcf506fef6eb0400ea00000000000000
00ee11f904eceb00e900000000000000
fb0407fbe9ff00040f00000000000000
eae10ee6f916fd19ef00000000000000
15fee4ea1300f41d0f00000000000000
fd19eefbf80206f11300000000000000
1102f8f1fcf4e9f20000000000000000
10eaf20bf31915f8e400000000000000
eae4e200fa07e5040f00000000000000
10100009e2f0f3fa1000000000000000
e20c1e1be91403f6ee00000000000000
e71804110619ef01f200000000000000
0b0213fafb1714fdec00000000000000
f0fe07e3e30dfef11f00000000000000
f0fb090506ed1e0ef500000000000000
e913fd1c060bf600ec00000000000000
0efb0a11ee07f917f200000000000000
10e118f806e1e7fff200000000000000
09f9fd1a0e1f17120a00000000000000
f2010d06f4fefee50a00000000000000
e5e901e21607f3051e00000000000000
0dee04e41ce30414eb00000000000000
17011bf203e7100ae400000000000000
f8f61306e1ec01030f00000000000000
e6e3f213f3fe170ae200000000000000
14e3f2fbebe3f2f9e800000000000000
ed07e3e90c1c02110600000000000000
151d0c081418e41aec00000000000000
fae70414e603eff2fd00000000000000
e213f3181fe1e71ae400000000000000
f91bea1b1ef5f4061900000000000000
1102f7031811ed131300000000000000
1e0dfbf4f3fbf5e4e500000000000000
11f1fe0bf504fd000900000000000000
010a1af6e70618fd1c00000000000000
13f2f4e9f6e5f6f0eb00000000000000
ef1f1ae81ae11502e700000000000000
08fd08e817ef0ae70500000000000000
e9111bfce6fae2050900000000000000
17e41de8e9151ffb1c00000000000000
1c14e5ff0ae3fa1a0000000000000000
18ece3faffe1191c1400000000000000
e317e90007f6feee0e00000000000000
0d1d1b18eb19e51df800000000000000
0c0b181efff9f50be300000000000000
1200fde1ff0f07ee1c00000000000000
1c1aebe1ff1d171d1a00000000000000
1dfced00e4e9f3ef0a00000000000000
ffe803f5f308fee70900000000000000
e61cfcfbf8fe05141b00000000000000
0007f1efeae102e1f600000000000000
010bfe13011805e9ef00000000000000
0b070c11110cf2021800000000000000
0101f2011bf1e709e500000000000000
fbf9fa17fd13ff00fe00000000000000
fb090e151409f91bf800000000000000
fef400f700fefde70600000000000000
0f120103f81106f1ec00000000000000
f50619e91bfa0018ee00000000000000
f90d1e0dea1ff91efe00000000000000
f0e11ff0f218f803f600000000000000
f9ef15f71afaeafef400000000000000
18f1f403fee4ee0cf500000000000000
05e905011ff91f0eee00000000000000
f9e401020ee701f4ea00000000000000
180309e9fee1f5181400000000000000
120cea16f8e70316fc00000000000000
f5e2efeae2e2e7f6f900000000000000
19fb0cf0f71ffcecf700000000000000
170e030ceee41cfa1700000000000000
0915e1fa0af21ce7e200000000000000
00001af8f715e9121f00000000000000
