0f0b0e0af30ff31a141114000706f3f7
12eaf705000009ec1aed1a07fe000b0c
edf9fd0ce6f20a01e4ed00010fe70a1c
020d1af50c1c0eebe2fcf3f403e5f7fe
f6f0f512ede3151de2170616010312e3
e1eee408eae903e1191203e60eef13e6
18ed0fea1d10090b1afe030611e1020f
f6eaf5181e14e9e8f91212ed18faeb0e
00f3ec170419fc0ff31f1000ec02e3f4
03f2081b0e1d17e516e7ecec1b1feaeb
ede2e61d09f5e1e9ef111f000c0deb1e
e104fde70bf81212e6010a0ff9e5ffe8
1f00fd0818f2fc0bebf8fd1e00110e07
f6edf1e118e70a1c0cf50eebe1fb031f
ede5e1f50d070a1d1f170efce7161706
03041405e802e5ff11e31a00f3f317e7
fb10fe0808f308e1e8121a13ef0be70d
ee19e3f6f0e1f0f6e713f81b00050813
f40efdfb1cf0fa05e3f6ed1f09171ee9
e216e9101e1cfc0d0b150014e616e2f0
13e4e10507f3e706f31a1e1816f8fcfa
10090a05fcedf9e3e3fe1de6f6edec01
0afe0ef40b0318000304f2171be20ce6
e31ef41bfbf01402f600efe605eee918
1cefe2f0f61112f2e3e4fe14f7e70d01
0ff4ff0be3ebeafc1d0f03f00df000e7
041dffe9011d0512f0ef14e6f5f3031a
14120d0fffe2f0fa0517eae8e81b061a
f401f6000100051bfcf7fce519edf606
05f7ededfaebeee7f21e12e8e50105ec
fc111de4001eeb17ff070ff01fe3ecf1
0febf1e61a1b12f21909000ef80c0f0a
