051ae40d1e0514ebfb00000000000000
11f7090900f20fe31100000000000000
1a140cede71bf71cfc00000000000000
1cf20be1fa061eef0300000000000000
ff00faf30bfbe3001800000000000000
04fa0a10f9e71904ee00000000000000
09f4fbe21d1519f3e100000000000000
02e5e8ea0218ecfdf300000000000000
e603e5e2f702151ef000000000000000
14e6e8161af0eb09e400000000000000
04ec0812f4f119061a00000000000000
e9050316001f01171300000000000000
0700f61d0cffeaf5ec00000000000000
0801f4e6fe0ee4f61d00000000000000
03e217f2f40dfe021100000000000000
19ffedf507e719041d00000000000000
edf404e6fdec0e0f1400000000000000
e4fff1e71be9e811fc00000000000000
f0e51ef70413f0eb1800000000000000
0f1f0de60309fde7f900000000000000
1304e21810f002e2ee00000000000000
1cfbe8f5f20ee9ed0800000000000000
f91611e9131f1af91d00000000000000
08fff610f1ffed1e0800000000000000
e3e61f1eee050f1aea00000000000000
f4eaea06140e0af01200000000000000
edf901fef605190c1700000000000000
ff11100aef0d14eaef00000000000000
00f20f0df0e2e2e7f300000000000000
ea06fceffb0a060ee700000000000000
180ffcfcfb1ffa011800000000000000
0f0ae4f4e6090d00fa00000000000000
f61b1b02f70bf109e800000000000000
18f4eb10e1e816f8fd00000000000000
1a0ce30cfe1606ecfc00000000000000
15e1ebff1e1107e31d00000000000000
fb0f1403041fe5e7e600000000000000
14e41d0ef9fd15eeec00000000000000
1501edeefced1c080800000000000000
e302ffece5e8f3fbea00000000000000
0c12eced16150b0d0600000000000000
f8ebf906fb171b17e600000000000000
e11915151c0df4f80000000000000000
05e2f4e11a16edfae600000000000000
1efe051b0feef51a0900000000000000
0ce1eaf4e2090e130400000000000000
02fc11e8fd13ff1e0500000000000000
000c06f5ff00030d1400000000000000
11e105fc1b170005e300000000000000
1de6fee7070d010a0e00000000000000
fe11e1071110e408fe00000000000000
1ce2f60b1b0009010900000000000000
f71deff01805ef171d00000000000000
ff0aeff5f00e021e0000000000000000
e41d1d130d02fd14e200000000000000
fef017eaf1e3e9f8f200000000000000
0e1f18eefc1ff5e2fa00000000000000
120bf3ee0dff1c19e600000000000000
f9e91e0ff3f4e5100800000000000000
0513ec090af31710e300000000000000
fc1b0fe31a150ae30c00000000000000
f71711011806f700f400000000000000
0900e1e1f11fe61df600000000000000
1c0dfbebfc0f061a0300000000000000
06f9e9f8090e09f01900000000000000
fef4e9f2f2f4f80fec00000000000000
f213fc1cfcf7e2f20f00000000000000
e60e0005f90ce9e4f800000000000000
0b1b0002f8f90dedfa00000000000000
0dee1307eff4e30fea00000000000000
ede1f3fc1affff150100000000000000
1aff0e1c031be1070a00000000000000
e4f9ef0e06e1ea041200000000000000
ffe40ff81515fa0bec00000000000000
f0e9ec1d0ffcf2e9eb00000000000000
f20709191efdeaf01300000000000000
f31912ef0400e80ee600000000000000
e10013151e0a1e09f000000000000000
1ae61a18e3fce1f1eb00000000000000
1fece8091fe90e1bfa00000000000000
ff0900f7ee000ae81300000000000000
e811f016e5f1fb000000000000000000
170de7000719e5ed0300000000000000
05e6f4fee8fef104fe00000000000000
18ff08f2ff14fe111400000000000000
01e8eb050d12e1ff1c00000000000000
e8f31cef0ef20e141000000000000000
fffa0d0b0ef9e610fb00000000000000
1be61e17e9ec141e1a00000000000000
f4fb1a19edf61eebe100000000000000
03f5f71a1311f8ee1300000000000000
f6fa0cfae41a1b1a0e00000000000000
e7f510f3f9f4fb0a1300000000000000
141afa1af60c01091100000000000000
0600e1e410020004f400000000000000
fb11091805ed12f21000000000000000
0b131e130e0ae4ed0500000000000000
fded08f9110719e80000000000000000
1a061e0beb06ea10f100000000000000
01e707030d1ee8f2f300000000000000
eaf5f3e91be800f80200000000000000
e7e2e208ed0117f41c00000000000000
11f00d00e1e1101ee700000000000000
e4fa09eaf9e9f3edfa00000000000000
e9ea14faecf2fee5f500000000000000
19fc1502fb0a17e71400000000000000
f31f13eceffaefee1e00000000000000
11fce6e208121600f000000000000000
0f020a011309f4fbeb00000000000000
ecfe03ede5fd0900f900000000000000
001d0a0dfa0d03090b00000000000000
1ee2110ee5f10ce7fb00000000000000
02061ff8f8e1fb18e300000000000000
0004f91cecf511e40100000000000000
1dfc081211e91c13e800000000000000
0df31deee610ef0c0300000000000000
f4f01702ef10f20be300000000000000
1afafb1b1b130e011b00000000000000
010bf003f0fb18fb0400000000000000
fae50016e3160118f100000000000000
0e0ded0cf21203eb1e00000000000000
fd13ec0d190ff700ee00000000000000
e2ecf409ed100be1fc00000000000000
fa1f0c030305fffa1d00000000000000
ee071b0b14f6e4e7f500000000000000
e9e51ee40b02f4fbfb00000000000000
1a190afdf8e219e7ed00000000000000
ec1e1df7f0191f0be100000000000000
f4ff060c1b0ff5eafa00000000000000
eae7f2fc011bf8ebf400000000000000
1d17eb0ef00a1ae40e00000000000000
e11715e21018f2ebe600000000000000
eb090c13f4f2fd18f000000000000000
eeecf4041df209e71a00000000000000
0c0900e609e81e04f300000000000000
ec13f3fb180514eae300000000000000
e3f1f2eb071b0914e300000000000000
0507fef602ff0ceb1800000000000000
fbfb11151f1c03feeb00000000000000
e4fd001f0e1ffc011a00000000000000
f5ecfbe2e4180a040e00000000000000
13f01700eb1208f8ff00000000000000
1dee0ef2faece502f200000000000000
100417e91eea1bedfa00000000000000
f2f81f150b150b11e600000000000000
fe1c03ebef1516e31200000000000000
08ff0613f8181bf0f700000000000000
18f709e4f9f1f1171400000000000000
e606f00a04f711e8fa00000000000000
f2f4191dfee51cf8e600000000000000
fa14e7f909e60f190700000000000000
fd0cfff9f71af517eb00000000000000
e3f5e7f5f0faf8f1f500000000000000
fcf0ecf1e90017ebff00000000000000
071905fff51ffe1c1e00000000000000
fb0910e3e41de60f0900000000000000
06f50bf4f91b0ee5fe00000000000000
1be400e905f517eff900000000000000
eafb11e8fb1de7f60500000000000000
fd1b02fd1e1b0c100800000000000000
f804f11b1c1f10e9e100000000000000
1f02f3071bf81deef800000000000000
e417e6e61cfaf1fafc00000000000000
f0fef819eb11e6010600000000000000
1aff13e70415eaf3ef00000000000000
0c02ea1efa061e1cec00000000000000
1108fbfa1500f408f400000000000000
e705e6e7f6fe1aeb0800000000000000
e8e70af1e310e7e50e00000000000000
e805ebf1eaeff7efea00000000000000
1cecf409e4f6e8f1fd00000000000000
00f1e1e30c00051d0300000000000000
1f11e91301f20cf10200000000000000
f6e3e7e3f302f211f300000000000000
120e0ff7fe1203ea1700000000000000
e7f9ede51bfb1aee0c00000000000000
131de4e7f0f90009ef00000000000000
1f07e117fee919e70f00000000000000
18f016020f1eed0e0c00000000000000
1a1eed1d061e0b061a00000000000000
0bebfae2fd0be1030000000000000000
13ebfbf116f2f705e500000000000000
e10406e8e40af3090000000000000000
060309161df318e60100000000000000
ff1307fd15f0f4fcf200000000000000
f404e8e71ce4e20b0200000000000000
00fc1e020d07f5e70700000000000000
1fecfff20610eefee800000000000000
1df301fb1af4f6f51c00000000000000
ea10f5ffff14edecfa00000000000000
ededf11e0e1b1af51300000000000000
ecfbf5eefe11e4f5f800000000000000
15e8eefee7e51c141e00000000000000
1ae8e619fef301170800000000000000
0610e2040bedf1f51700000000000000
0a190cf2f4fcedf41000000000000000
191df800f8f401fffe00000000000000
13eced1ff002ffeb0f00000000000000
190af6050feaf601ee00000000000000
1ee7fdee17e1eaf91600000000000000
e2e206ff17f31505f000000000000000
eaed0cfe12e619ee1900000000000000
0000ee01fefaebfae600000000000000
0709f01c08f3141c1800000000000000
ff0e1b1be400e8e5f100000000000000
0d12e8030b0017f61800000000000000
08fd10e7efffef090100000000000000
040deb120412f2141a00000000000000
030c08170fe31f070d00000000000000
e80b07f908070af9fa00000000000000
16eef4eb120116e6ee00000000000000
00e90004150df117fd00000000000000
e61d1b0be61207060100000000000000
1ee20401fd07f3060000000000000000
18f219fe1c0713e8f500000000000000
0c051eeb1effeff21800000000000000
0feef31d0614f4160e00000000000000
13100a110100f9130d00000000000000
18ea010d0015170d0d00000000000000
00fde9f815edef010c00000000000000
1413e10717f50d13fa00000000000000
08f4faf1e1f4fbe4e200000000000000
1de91a06e8f7ec081000000000000000
0f05fbfb041d14f00200000000000000
e4eaf7180be8e1ece800000000000000
1af0e5fff9ecf9e8e200000000000000
09f6f3031502fee1f200000000000000
fd1cfdfbf0091be2fa00000000000000
f20d1f09fb131f11f800000000000000
e50416ed040c1cf9e100000000000000
0700f3ff03e20d150900000000000000
05ee1ae116e70b0dec00000000000000
f11f0ee11500e807e200000000000000
1b05e41df8fb0415fd00000000000000
fae20cfae3021c051400000000000000
e7ff0b00f61cfd1fec00000000000000
1b0bfe1af9fef1fa0c00000000000000
1a10f2e80102001ee500000000000000
e6e21ef7ff18ef171b00000000000000
0f021be5ecf4101efb00000000000000
05e8e4e6ec1e0706e200000000000000
ff00f8fd13e104070200000000000000
fe090ffaee10e2f01200000000000000
1eec04e7f7e5ecee0c00000000000000
1eec17f718f3ffede100000000000000
ea00000fe8f907050800000000000000
f113181005e2fee7fb00000000000000
10e616e619ecf81be600000000000000
e20af6ebf1e4fa1de700000000000000
f2f5f0edfe00e2130600000000000000
e41f11f6fa0c02fa0400000000000000
0a0707f60e1df1e3f600000000000000
e9e50d00091ced131100000000000000
f2fe00e1fe1301e90200000000000000
1c000bf613f5f0f80300000000000000
f5ef000b1809f80dfd00000000000000
e11809fef00008e80c00000000000000
e603120c1bf30d101100000000000000
090fe21b01ebe2e41c00000000000000
1308e8e7ea00ef020d00000000000000
1df102190de31c02e600000000000000
0e090bee14e4fe16f100000000000000
e3e6f503151fe30cf600000000000000
fcff0604fb00f2fbfb00000000000000
fd14fff9fe0c06e80a00000000000000
18e4f2080116f50b0800000000000000
fe02000d0f0b1ce1fa00000000000000
0a0010f2160e04051b00000000000000
06fc0d16ff17fd0dff00000000000000
f8f9e8ebf801fa1c0a00000000000000
f3f2e7eff208f4f90400000000000000
1fe2fcf60312f0e40100000000000000
041e0ce21107041a0300000000000000
fc1515ff130018f20c00000000000000
ebe31c04fd0d0615ed00000000000000
0e12e3040c13e3f8ff00000000000000
f5fe08131013f61b1b00000000000000
19e6f8fbfa140c1df600000000000000
041d140c01e50c0af700000000000000
eafd110c04141612fc00000000000000
09fc05fa1e1711fa0000000000000000
0800e51affe1f7e20700000000000000
01fefbf41102fcf80e00000000000000
1ce8170e1c0d02ed1d00000000000000
05f3f812ff0df8e20300000000000000
f80018e303ef17fc1500000000000000
fde1e8f7f81cf2f90500000000000000
0a1de40e0300e402f800000000000000
1200e7e2f2fae90e0a00000000000000
0e12e4e20b10eaee0f00000000000000
1c1f10fa1e0e12100300000000000000
f9fb1d0cfe1612161c00000000000000
f10de4eaf30e07091700000000000000
1308f9efe51ff309ff00000000000000
050d10fc1b0508e61c00000000000000
f900ee190df5ebe2e200000000000000
09f3e30d09fe1518e700000000000000
f316ea03e80a1cf1ea00000000000000
1205faf6ef0be819ef00000000000000
e8121104f008f00be600000000000000
e2ebe11eeaf9f9f80700000000000000
0ffffceef9121c120200000000000000
10f71cea15e7f2ecfd00000000000000
1ffd14eb1906f4141d00000000000000
ee10fa0700f5f713ec00000000000000
ff13e41a13f510fd1100000000000000
1dfbe61304fffff3fb00000000000000
180e0b0f0f0c181efe00000000000000
1ef1f5f0fdf9eb140c00000000000000
14f1ec0c091c06f31a00000000000000
08f3f604ec13f5efff00000000000000
fef2fbe3fa09f6ef1f00000000000000
eeeef00b0018f3f40b00000000000000
1ff115f71b011dfbfa00000000000000
f9fbe1f701e71507f600000000000000
e607f1150bf4e10dee00000000000000
faf0f6ed0ae108001600000000000000
f00e1de500e200ff0f00000000000000
1d0a03e7fcea180ee500000000000000
110503f9e6fce1e51600000000000000
e1e5fcfb0609f51de900000000000000
01f1f300eef1f902e500000000000000
e7f2f40afbfaf9f8ed00000000000000
011a180c191e06e8ea00000000000000
1f1d1ae91e0718011000000000000000
0704fce81307ec1b0d00000000000000
fbef0a1ef7ed1ff3e500000000000000
1dee14141b000f0c0000000000000000
e9040115fb180a151800000000000000
1a06f3e30b00fe110c00000000000000
fa0e0f0302e302fb1d00000000000000
0b03f010f01001041a00000000000000
ffffe409ea1b1f141400000000000000
01e20214fffb1fe4fa00000000000000
19fe12e4131eed13fe00000000000000
00071bf3e1e512e51900000000000000
080e1ae9f4fdeb1eef00000000000000
e7f806e41ff3ffee0c00000000000000
ffe51efd08ece5fb0500000000000000
f1151be61c0b0ce71f00000000000000
e206e4e1ee1f081c0100000000000000
18ea14040cfcef1f0500000000000000
1b08e21cfa171619f500000000000000
ed09070bf1fcf01cec00000000000000
e5f8fae3e4101516fc00000000000000
f40e061ae11ee9fef800000000000000
11efee12fd19f1ebf200000000000000
eaf6f0ebfb1607ed1200000000000000
f30f1c0c16edf6ef1100000000000000
0a10fbe7e10b1df81600000000000000
0c04ea04f509f51cf900000000000000
07090c0015e3140d0300000000000000
1bf2001f1e10fa0f1800000000000000
e512e3031904e5f9f300000000000000
f61300f400021f141800000000000000
16f013e90ffc1cf60600000000000000
15eaeaf0e810e8ed0400000000000000
f91fe4f7ff16120c0a00000000000000
1c0ae70d17f709e6f400000000000000
f1eff0e30200fc040200000000000000
e40decf6f40d1606e700000000000000
f2f900fdf6e41d0f1300000000000000
f8e21bf0f600ebfbe200000000000000
14f0e6050ae311171d00000000000000
00f1ea0ffaeb170c1400000000000000
ebec1aeef6ec1ffe0100000000000000
f4f515e3030d1d161700000000000000
f814120eff0d05f60200000000000000
14020aefeef318f0ff00000000000000
f71ae6f2e91105f51f00000000000000
0cf00e051efbe3171e00000000000000
1f0cfbe91be3fcf6ed00000000000000
13f216e303030fee1800000000000000
f80c0ef5ee17e4e2ff00000000000000
02e31c13e4eaf21fed00000000000000
020d1c1d041d05f8fe00000000000000
19fe0eed1bf21ee1ea00000000000000
10e80cf8e417f9171800000000000000
f611f80d0df40af31600000000000000
edfa16ec0af2e51b0c00000000000000
1a19eaeff61a13ee0300000000000000
f6e5f6fced05f4fee900000000000000
190e10001916061afd00000000000000
e8e7f5eeea18eb131800000000000000
ebfbe714f81c09e60f00000000000000
0dfff4faec12f701f200000000000000
f51fed04151a17061000000000000000
fee6eafb06ee1c1c0500000000000000
ebf70df2f40416f30f00000000000000
09f803ec04f4e4140400000000000000
e61e1011ede4010de500000000000000
ffebf910f5f1f71eeb00000000000000
150cedfef01c111deb00000000000000
08f509fc001002e50e00000000000000
edffedefe6120ee1f100000000000000
f01bffed0712e6031e00000000000000
efecf70cfbe7e1ebeb00000000000000
f7171fe2e1e9fe1ce600000000000000
e2eae81a0ee8fc13ed00000000000000
ef031af8fdf405eae600000000000000
13f201f20111ebe21600000000000000
04f7fd0118fb12151900000000000000
f6faf2fc0aebf71cfd00000000000000
f60aebeb1a0b0e0b0700000000000000
100eed001909e50d0100000000000000
06f30c07f3fe110c0000000000000000
011e0a1612151e02fa00000000000000
11e703130f19000b0e00000000000000
f0e6131104f4ff11f600000000000000
1b1909fc1a0aee1a0200000000000000
e319e1f410e500fdf500000000000000
1f08f3f2101fe2eef200000000000000
1a0d0df2e311f91d1a00000000000000
00e51e181e0e14e30000000000000000
07f100f20ffdfce11f00000000000000
09f7f1f200f8e4eff300000000000000
1404f701fd03f7f6f100000000000000
f9fe13e20ee6e50c1300000000000000
fbf9fe05e701f0f00400000000000000
06f21d0df20e10e11e00000000000000
17e1f9eb0000fc01f300000000000000
1eff081114ffee0f0600000000000000
10170ae6fe06f4e3f900000000000000
e2eae90ae30df7eee300000000000000
0419e601191eeaf6f400000000000000
e807eb140a16e1fc1e00000000000000
f2e2e41f0df41f00e100000000000000
eef7e2e9f2eefafa0200000000000000
16150bf505f6e410f100000000000000
ebe30519e603e1e70f00000000000000
f3ff1f1516191b0e0a00000000000000
ed1b1e1312ec03f70700000000000000
13eb0be5f9fafe1e1400000000000000
faea00fafae1f9ef0b00000000000000
f010f7f9eaf0e7130c00000000000000
effaeefaf8050cfff900000000000000
fcff03f4fd071e14fc00000000000000
e7fe041b071ce91de800000000000000
1eff0d04f7e709f6f300000000000000
fb0bf7fee3e10a1ae900000000000000
e8e8010d05fc1a1f0200000000000000
e11ee503010013fefb00000000000000
0ef001f406f2f5eae200000000000000
fce4e4f1e6f41afbf200000000000000
eb10ec14eefefc1c0b00000000000000
0009e20c09111f1e0b00000000000000
1711e2e50ff0061a1800000000000000
12f2e80e0014e719f800000000000000
f8eef50ced1fe60cef00000000000000
15fd18e2031e18f0e100000000000000
0e0f11f2031d121cfc00000000000000
f7020700f818fefbfa00000000000000
06e50e1efafb141cf100000000000000
ffe41feaeeeee41ee900000000000000
fbea1115fe0de30de700000000000000
0ff6eb18e6e30feefa00000000000000
fdfce3f31df7071cfd00000000000000
1d03060d050cfae9ff00000000000000
fdf7e405efe1e714ea00000000000000
18eeeb0a00ebeaebe100000000000000
180aef1a101af604fb00000000000000
e21010ef0d0a1bf00b00000000000000
16fc0ee812e6ecfdf700000000000000
18eb06eff5000ff01f00000000000000
04f7100813010de91b00000000000000
041be50205ede8040a00000000000000
ea14e3fa0af4e5f81700000000000000
17f2fd04e2ece9150700000000000000
060f07f90f000c130400000000000000
1a13f6121bfce7110900000000000000
e9f203f202fd0317fd00000000000000
1f00f3efeae207fa1400000000000000
e5e6f10f1e07fb03e200000000000000
f8091e06091ff9120700000000000000
03eaff1c1be60b000300000000000000
0cf8eee4ecf809ed1500000000000000
f8ff10f902f413f2e800000000000000
1c1d071912ef0ef5ff00000000000000
0fff0aeaf1f809161300000000000000
1109ffefe71503fd1000000000000000
f6ed1f1205ebee0e0500000000000000
eaf6e9e717efec101800000000000000
0f0f0be7ed021c16fd00000000000000
0be6eef21ce1ee021100000000000000
04ff0aed170f061c0300000000000000
fae918100a0ee90e0700000000000000
fcf316f1e9f41e160100000000000000
10ece815f1181ee11900000000000000
07151314fd0207ee0d00000000000000
170608000b1002e4e700000000000000
17131dfcf1001ce1eb00000000000000
ec0de70113f4f2fe0500000000000000
1c071de7e814fcf7f400000000000000
0fffe9e8e6f1e3fb0b00000000000000
13e809fe14fe0cf8e500000000000000
151fff07f1e7eeff0900000000000000
0719ed0816e2f115fa00000000000000
f2f6e70a020600fc0b00000000000000
f6fb0ef40e0ef109e300000000000000
fa000aeef2ed11fef200000000000000
100d00f200e5f617f800000000000000
18f01cf704021f12f100000000000000
19e7e4f5ebfa14e5fc00000000000000
e7e9e9f2e91414f10b00000000000000
f9131708111b040deb00000000000000
0aed001d17e204f31900000000000000
121013f2eb0a18e60400000000000000
ef0e1b08150e0af1fd00000000000000
f6f2ea0bf1e80b1b1500000000000000
f10d08ee1908f9e80600000000000000
e912eeef0602ef04f100000000000000
1a0ce8170b1efeefea00000000000000
